//format=mti addressradix=d dataradix=d version=1.0 wordsperline=1
0: -6144
1: -3072
2: 0
3: 3072
4: -2048
5: -9216
6: -3072
7: 3072
8: -4096
9: -5120
10: 1024
11: 7168
12: 1365
13: -9216
14: -6144
15: -3072
16: 0
17: 3072
18: 6144
19: -7168
20: -4096
21: -1024
22: 2048
23: 5120
24: 8192
25: -6144
26: -4096
27: -2048
28: 0
29: 2048
30: 4096
