//format=mti addressradix=d dataradix=d version=1.0 wordsperline=1
0: -5120
1: -2048
2: 1024
3: 4096
4: -1024
5: -8192
6: -2048
7: 4096
8: -2731
9: -4096
10: 2048
11: 8192
12: 2731
13: -8704
14: -5632
15: -2560
16: 512
17: 3584
18: 6656
19: -6656
20: -3584
21: -512
22: 2560
23: 5632
24: 8704
25: -5120
26: -3072
27: -1024
28: 1024
29: 3072
30: 5120
