//format=mti addressradix=d dataradix=d version=1.0 wordsperline=1
0: -191
1: 633
2: -1631
3: -1743
4: 10679
5: 7935
6: -10579
7: -8374
8: -1125
9: 1436
10: 314
11: -1706
12: -2095
13: 5480
14: -1723
15: 1098
16: -2925
17: -1391
18: 2558
19: -5419
20: -9585
21: -146
22: 4111
23: -3357
24: 11156
25: -9614
