//format=mti addressradix=d dataradix=d version=1.0 wordsperline=1
0: 2576
1: 2542
2: 1112
3: 260
4: 2491
5: 217
6: 2638
7: 362
8: 746
9: 3142
10: 3975
11: 2822
12: 3432
13: 3047
14: 2235
15: 866
16: 962
17: 3639
18: 1735
19: 988
20: 2352
21: 3940
22: 230
23: 1988
24: 30
25: 2193
26: 901
27: 2376
28: 0
29: 0
30: 0
31: 0
