//format=mti addressradix=d dataradix=d version=1.0 wordsperline=1
0: 1860
1: 3190
2: 2220
3: 50
4: 1034
5: 2476
6: 530
7: 2118
8: 3690
9: 2709
10: 1492
11: 2705
12: 3611
13: 3583
14: 3479
15: 826
16: 1501
17: 2932
18: 2356
19: 580
20: 1896
21: 3247
22: 2019
23: 1032
24: 1230
25: 3796
26: 3653
27: 1072
