//format=mti addressradix=d dataradix=d version=1.0 wordsperline=1
0: -32768
1: -28672
2: -24576
3: -20480
4: -16384
5: -12288
6: -8192
7: -4096
8: 0
9: 4096
10: 8192
11: 12288
12: 16384
13: 20480
14: 24576
15: 28672
16: 0
17: 0
18: 0
19: 0
20: 0
21: 0
22: 0
23: 0
24: 0
25: 0
26: 0
27: 0
28: 0
29: 0
30: 0
31: 0
