//format=mti addressradix=d dataradix=d version=1.0 wordsperline=1
0: 605
1: 2803
2: 1848
3: 3832
4: 1483
5: 3149
6: 3406
7: 2986
8: 1421
9: 3136
10: 3284
11: 3911
12: 3504
13: 1799
14: 2894
15: 457
16: 1567
17: 3078
18: 3767
19: 3047
20: 2111
21: 1971
22: 914
23: 2916
24: 1600
25: 3124
26: 3103
27: 3081
