//format=mti addressradix=d dataradix=d version=1.0 wordsperline=1
0: 1727
1: 3423
2: 1894
3: 736
4: 3889
5: 1740
6: 1614
7: 3151
8: 833
9: 1512
10: 2337
11: 1944
12: 2171
13: 4039
14: 2151
15: 2706
16: 3870
17: 2007
18: 1524
19: 3398
20: 3251
21: 1215
22: 1069
23: 2118
24: 2404
25: 856
26: 2577
27: 3565
