//format=mti addressradix=d dataradix=d version=1.0 wordsperline=1
0: -31744
1: -27648
2: -23552
3: -19456
4: -15360
5: -11264
6: -7168
7: -3072
8: 1024
9: 5120
10: 9216
11: 13312
12: 17408
13: 21504
14: 25600
15: 29696
16: 0
17: 0
18: 0
19: 0
20: 0
21: 0
22: 0
23: 0
24: 0
25: 0
26: 0
27: 0
28: 0
29: 0
30: 0
31: 0
