//format=mti addressradix=d dataradix=d version=1.0 wordsperline=1
0: 2271
1: 1692
2: 1786
3: 1203
4: 563
5: 647
6: 2190
7: 567
8: 3911
9: 997
10: 2397
11: 1405
12: 2367
13: 2062
14: 2407
15: 2068
16: 3944
17: 1549
18: 3429
19: 3503
20: 1931
21: 1821
22: 197
23: 1692
24: 671
25: 3259
26: 1698
27: 3805
