//format=mti addressradix=d dataradix=d version=1.0 wordsperline=1
0: -636
1: -1314
2: -1766
3: 1745
4: -1115
5: -3853
6: 9484
7: 7631
8: -199
9: 1448
10: -1117
11: -1293
12: 8272
13: -4538
14: 1841
15: 833
16: 1496
17: -956
18: -1769
19: 4032
20: 6401
21: 3993
22: 1705
23: -20786
24: -19068
25: 2675
