//format=mti addressradix=d dataradix=d version=1.0 wordsperline=1
0: 2140
1: 2716
2: 3318
3: 312
4: 1740
5: 1334
6: 2909
7: 2205
8: 448
9: 293
10: 2548
11: 2206
12: 226
13: 2611
14: 2369
15: 1045
16: 3814
17: 1128
18: 3218
19: 2879
20: 2313
21: 2458
22: 3781
23: 1714
24: 609
25: 249
26: 4076
27: 1204
28: 0
29: 0
30: 0
31: 0
