//format=mti addressradix=d dataradix=d version=1.0 wordsperline=1
0: -30720
1: -26624
2: -22528
3: -18432
4: -14336
5: -10240
6: -6144
7: -2048
8: 2048
9: 6144
10: 10240
11: 14336
12: 18432
13: 22528
14: 26624
15: 30720
16: 0
17: 0
18: 0
19: 0
20: 0
21: 0
22: 0
23: 0
24: 0
25: 0
26: 0
27: 0
28: 0
29: 0
30: 0
31: 0
