//format=mti addressradix=d dataradix=d version=1.0 wordsperline=1
0: -29696
1: -25600
2: -21504
3: -17408
4: -13312
5: -9216
6: -5120
7: -1024
8: 3072
9: 7168
10: 11264
11: 15360
12: 19456
13: 23552
14: 27648
15: 31744
16: 0
17: 0
18: 0
19: 0
20: 0
21: 0
22: 0
23: 0
24: 0
25: 0
26: 0
27: 0
28: 0
29: 0
30: 0
31: 0
